01000011110000000000000000111000000011110000000111000000111000000000000000001000011110000001111000000000000000011100011100000001110000100001000000000000000010000100001110001110000100000000000000000000011100000001000010000111100001000010000100000000000111100000000000100001000011110000001000011110000000111000000000000000000000111100000001110000001000010000111000000001110000100000011100000001110000000000000000011110000001111000000011100000001110000100000001110000001110000000000000000000000000001111000010000000
01000011100000000001110000110000000011111000111111000001111000001110000000000000011110000000110000000000000000001111111100001111110001110011100001111111000111000000001111111110001110000000011100000000011000000001000000000011100000000000000000001110000111100001110000100001000011110000011110111110000111111000000000111111110000111000000111100000001100111000000000000111110000000000000000000000100000000000000000011111000000110000001111100000000110000100001111110000001100000000000111000000000000011111000111000000
01000001000000000011111000000000000001110001111000000011111000000000000000000000001110000000000000000000000000000000111111111111111011110011000000001111100111000000000001111100011110000000111110000000000000000011100000000001100000000000000000011111000111110111111000000000000001100000111111111111000111111000000001111111110001111000000011000000001111111000000000000011111000000000000000000000000000000000000000001111100000000000000111000000000110000100001111110000011100000000000111100000000000011111100010000000
01000000000000000011111000000000000000000001110000000111111100000000000100000000000110000000000000000000000000000000011111111100111111110000000000001111100111000010000000111000111110000001111110000000000000000011100000000001100000000000000000011111000111111111111000000000000000000000111011111111000011111000000011111111100001110000000000000000001111111000111000000001111100000000000000000000000011100000100000001111100000000000000000000000001110000100011101110000011110000000000011111000000000011111100000000000
01000000000000000001110000001100001000000001100000001111111110000000001110000011000010001110000000000000110000000000000011111000011111100000000000000111000010000111000000011000111100000001111000011000000000000011100000100000100000000000110000001110000111111111100110000100001000000001100001111111000001111000001111111111000001110000000000000000001111100001111110000001111000000111000001111000000111110001110000001111000000000000000000000000011110000100001000010000011110000001000001111111111000001111100000000111
01000011100000000000000000011100001000000011100000011100011100000000000111000111000010000100000000000000000000010000100001111000000011100000001110000000000010000111100000010000111100000011110000000000000000000001110001110000100001000000111000000000000111000111000010000100001000000011100000001110000001111000000000000111000000111000000010000100001111000000000000000011100000001111000000011100000011110000100000001110000100000010000111000000011110000100001000010000001111000000000001110000000000001111000000000000
01100111111111111000000001111100001000011111100000111100000000000110000011111111000010000000001111111100000000000001100000111000000001100001111111000000000010000111110000010000111100000111100000000001111111000000111111110000100011100000111111000000000110000000000000000000001000011111100000000000000001111000000000000011000000011111000111000100001110000000000000000111000000011111000000011110000001110000000000111100001110000000001111111000011110000100000000010000000111100000000001100000000000001110000001100000
11100111111110000000000000111000000000111111000000011000000000001110000011100111100111111000001111111110000000000000000000110000000000000001111111100000000000000111111000011101111110001111100000000011111000000000011111100001100001110000111111100000000000000000000000000000011100111111110000000000000011110000000000000000000000011111111111000000000000000000000000000011000000001110000000011111000001111000000000010000000111000000001111111100001100001111000000010000000111110000000000000000000000011100000000000000
11100111111100000000000000000000000000111110000000000000000001000110000011000001110011111100011101111100000000000000000000000000000000000001111111110001110000000111111000011111111110111110000000001111100000000000001100000011100000110000111011110000000000000000000000000000011111111111111000000000000111100000000000000000000000111111111110000000000000000000000000000000000000000000001100111111000011111111000000000000000011000000001111011110000000001111100000110000000011111000011000000000000000111100000000000001
11000011111000000000000000000001000011001110000000000011000011100010000111000001110001111110011000111000000000000000000000000011100000000001110000110011111000000111111000011111111110011100000111111111000000000000001000000111100000010000100001111000010000000000000000110000001111111111111000000000000111000000000000000000011111111111111000010000000000001110000000000000000110000000011111111110000111111111100000000000000001100000000110001111000000110011100000110001110000111000111100000000000000111000000000000111
00000011110000001110000000100001000010000100001110000000000001000010000111100000000000111100001000010000100001000010000001000011110000100000000000100001111000000111000000011100011100001000000111000111000000011100001000000111100000010000100001111000010000000000010000111000000000000000000000000000000000000000000000000000011100000000111000010000000000011110000100000010000111000000011100011100000000000011100000010000100001110000000100001111000000100001110001110000100000010000111100000011100000000000000000000000
00000011100000011111100001110000000000000000011111110000000000000010000111110000000000011000000000000001110111100111000000000011111001110000000000100000111000000110000000011000000000000000000110000010000011111110000000000111100000010000100001111000010000111000000000111111000000000000000001111111100000001111111111111000011000000000011000010000111000111110000100000111000111110000011000000000000000000001100000111001110001111100000000001111000000100000111111110000000000000000111100000111111100000001111111100000
00000111000000011110011111110000000000000000001110000000000000000011000011111100000000000000000000000001111111100111100000000111110001111000000001100000110000000000000000000000000000000000000000000000000111111111100000000111110000000000000011111101110001111100000000111111100000000000000001111111110000000001111111111100111000000000011100111001111111111110001110000111000011000000011000000000000000000011100001111000110000111000000000001110000000100000011111111111000000000000011110011111111110000011111111110000
00001111000000011100001111110000000000000000000000000000000000000011000000111111000000000000000000000000111111100001100000001111100000011110001111100000000001100000001000000000000000000000000000000000001111110011100000000111111110000000000111111111110001111100000000111011100000000000000001101111110000000001111111111111111100000000011100111111110111111110000111000111000000000000011000000000000000000111100001100000001000000000000000001100000000100000000111111111100000000000001111111111001111000011100001110001
00001110000000001000001111100000000000000000000000000000010000000011100000011111100000000000000011000000011111000000110000001110000000001111111111000000000011110000011100000011100000000001110000000000001111000001100000000110011111000010000111111111110000111000000000100001100000000000000001000111001000000001111000111111111110000000011100011111100011100110000111000010000000000000011000000000000001111111100001000000001100000000000000001100000000100000000011001111110000000110000111111100000111100001000000110011
00000000000100001000011100000000000000000000000000000000111000000011110000001110000000100001000011100000001111000000111000000000000000001110001110000001000011110000001110000000000000000011110000000000011110000001110000000100001111000010000000000001110000000000000000100001110000000011100001000010000100000001110000000000001110000000111000000011100001000010000000000010000111000000011100000001000011100011100001000000011100001000000000001110000000100001000010000111100000001110000000111000000111100001000000100001
00000000000100000000111000000011111111111111111111100000111111000011111000000000000000000000000011111100000111000000111111000000011100001100000000000000000011110000000111110000000111000111110000011000111100000001111110000000000111000010000000000000110000000001110000110001111111111111110000000000000000001111100000000000000110000111110000000001100000000000000000000010001111111000011111100011110111100001100011000001111100011100011100001111110000000001000010000011000000111110000000000000000111100000000000100000
10000000000000000000111000000001000011111110000000010000011111000001111000000000000000000000000011111100000010000001111111000000111110000000000000000000000011110000000111111000001111111111100000111100011000000000111111000000000110000110000000000000110000000011110001111011111111111111100000000000000000001111000000000000001110000111000000000000000000000000000000000000001111111000011111110001111111100011110111100000010000011111111100011111110000000001000010000000000000011100000000000000000011000000000001110000
11100000000000000000111000000000000001111000000000001100011111000001111000000100000000000000000011111100000000000001111110000000111111000000000110000000000011110000001111111000001110111111100000011100000000000000001111100000000000001110000000000000110000000011100011111111111111111111000000000000000000000111000000000000011110001110000000000000000000000000000000110000001111011100011111111000011111100011111111100000000000011111111000111100111000000001000010000000000000000000000000000000000000000110000001111000
11111000010000000000010000000000000001110000000000001110001110000000110000001110000000000000000011111100000000000001111100000000011111100000001111111000000011110000011111100100000100011100000000001100000000000000000111100000000000011110000000000000110000000011000011111111111111111110000000000000010000000011000001000000111110000100000000001000001100000000000111111000000110001000011001111000001111111111111111100000000000001111110000111000011000000001000010000000000000000000000110000001110000001110000001111100
00111000010000000000010000100001000011110000000000011110000100000001110000001111000000000000000011100000000111000000111100001000000011100000011100011100000011110000000111000010000100001000010000001110001110000100000011110000001000011110000100000001110000000111000000000000000000000000000000010000111000000011100011100000001110000100000000000000001110000000000000111000000100001000010000111000000000000000000111000000000000000001110000000000011100000001000010000100001000011100000000000011110000001111000000111100
00011000110000111000000000010011110111110000010000111110000000001111110000001111100011111110000011000000011111100000011100001000000001100000111100011110000011110000000000000010000000000000011000001111111111000000000001111000000000011110000100000111110000011111000000000000000000000000111000111000111111000011111111100000000110000100001110000000001111111111100000011000000100001000000000011111000000000000000000000001111111000000100000000000011111100001000010000100000000111111100000000111110000001111100000011100
00000000111001111000000000011111111111100000001000011100000000011111100000000111111111111100000000000000001111110000000000001000000000000011111100011110000111111000000000000111000000000000010000000110011111000000000001111100000000001110001110000011111000001110000000000000000000000001111100111100011111100111111111110000000000000000011111000000000111111000000000000000001110001100000000001000000000000000000000000011111111100000000000000000111111100000000111000100000000011111110000001111111000011111000000000000
00000001111111110000000000011111011111000000000110000000000000111111000000000001111111000000000000000000000111111110000000011000000000000111111110011110001111111100000000000111110000000000000000000000001111000000000001111100000000000110000111000001111110000000001100000000000000000001111100111110001111111111111111111100000000000001111110000000000111100000000000000001111100001110000000000000000000000000000000000001111011110000000000000001111111000000001110000110000000001001110000011111111100011110000000000000
00000011111111100000000000011100001111000000000110000000000001111100000000000000111110000000000000000000000000011111000000011000001000001111101111001100001111111000000000011111111000000000000001100000000110000000011100011100000000000110000110000000001110000000011110000000000000110000111000011110000111111111111111111111000000000001111100000000000111000000000110000011111100001111000000110000000000000000000000000000110001111000000011100001111110000100001110000110000000000000110000011100011100011110000000000001
00000011100011100000000000111100000000000000001111000000000001111000010000100000011110000100001000000000001000011110000000111000000000001111000010000100000000000000001000011100011100000000000011100000001110000000111000000000000000001110000000000010000100001000011110000100000001110000000000011110000000000000000000000111000000000001111000010000001111000000000000000011100000001111000000111000000000000011100000000000100001111000000111100000001110000100000000000111000000010000111000111000000000001110001110000001
00000011000001000001110001111100000000011100011111100011100001110000111011110000001110001110011000011100011100011100000011111000000000001110000000000000000000000000011100011000011110001111111111100000111110000111110000000000111111111110000000000111000000011100011110001100000111110000000000011110000000000000000000000011000001000001110000111000011111000011100000000011000000001111000000111111111111111111110001110000100001111000001111100000000110000100000000000111110000111000111111110000000000000111111111000001
10000111100000000011110011111110000000111111001111110011110000000000111111111000000000001111111000011100001100001110000111111000000000000000000000000000000000000000111100000000001100011111111111110000011111000111100000000011111000011111000000001111000000011110111111011110000011111000000000111111000000000000000000000011100000000011100000111111111111000011110000000011000000000111100001111111111111111111100011110000100000111100000111100000000000001100000000000011100000111101111111100000000000000111111111100001
11000111110000000011100111111110000000111111000000111001111000000000001111111000000000001111111000111000001110000110000011111000000000000000000000111000000000000000111100000000000000011100011111111000001111000011100000000111110000001111111000001111000000011111111111111111000001111110000011111111100000000000000000000011110000000111100000111111111100000001110001000011100000000011110001111011111100001111000111110000110000011110000011100000000000011100000000000000000000111111111111000000000000001111111111100001
11000111111000000111000010001110000001001111000000010000111100000000000111110000000000000111111000010000000111000111000001111000000000000000000001111000000000000000111000000011100000011000001111110000001111000001100000001111100000000001111110000111000000001111111111111110000001111111111111111111100000011000000000000001110000000111000000001111111000010000110011100011110000000001110001110001111000000110000111100000110000001110000001100000000000111100000000010000000000011111111110000000001111111111110000100001
00000011100000001111000010000100000010000111100000010000111100000010000111100000000000000000111000010000001111000010000001111000000111000000010000111100001000000000000000000000000000111000000111000000011110000001110000000111100000010000111000000010000100001110000000000000000011100000000000000000000000111000000000000000000000000000000010000111000000010000100001000011110000000000000000100001111000000111000111000000111000000000000011100001000000111100001000010000100000011100011100000000000000000000000000100001
00000000000000011111000010000000000000000011110000011000111100000000000111000000111111100000011000010000011111000000000001111000001111110000111000011110011000001100000001110000000111111000000000000000111100000001111110000011100000111000000000000000000000001100000000000000000111000000000000000000000111111000011111111000000011100000000000000000000000010000100000000011110000111000000000000001111000000111111110000000111110000000011111100011000000111100001000010001110000011000000000001110000000000000000000100001
00000000000000001110000111000000000000000011111000111101111000000000000000000000011111110000011000000000011111000000000001111110111111001111111000001111111100000000000011110000001111110000000000000000011000000000111111000011000001111000000000000000000000000000000000000000000111000000000000000000001111110000011100001000000011110000000000000000000000011101110000000111100001111000000000000001110000000011000000000000011100000000000011000011100000011110111000010001111000000000000000001110000000000000000000000001
00000011000000000000000111100000000001110000011100111111111000000000000000000000000001111000001000000000011110000000000001111111111100000111110000000011111110000000000011100000011111100000000000000000000000000000011111000100000001111000011000000000000000000000000000000000000111000000000000000000011111100000111000000110000001111100110000000000000000011111110000001111000111111000000000000001000000000000000000000000000000000000000000000111110000011111111000010001111110000000000000001100000000000000011100000001
00000111100000000000001111100000000001111000001100111111111000000000110000000000000000111100001000000100001100010000000001100111111000000111100000000001111110000000000011000001111111000011000000111110000000000000001111111100000001110000111110000000000000000011000000000010000011000000000111000001111111000000110000000111100000111111111000000000110000011111111100001110000111110000000100000001000001110000000000001000000000000110000000001111100000011111111000010000111111000000000000011000000001100000111110000001
00000001110000000000011100000000000011110000001000011100011100000001110000001000010000111100001000000100001000010000100001000011110000001111000000000001110000000000000111000000000000000011100000000111000000000000000000000000000000000000111000000000000000000111000010000000000011100000001111000000000000000001110000001110000000111000111000000000000000011100011100000000000111100000001110000001000011110000000000011100011100000000000000001110000000111000111000010000000111000010000000111000000011100000011110000001
00000000111000010000111000000111000111100000001000000000001110001111110000011100111000111100001000000110001000000000000001000001100000011110000011100001100000011111111111000000000000000011111100000011100011111110000000000000111000000000110000001111111111111111000010000000000011111000011111000000000000001111110000011110000000110000011000001100000000011000001100000000000111000001111110000000000111110000111000011111111110000000001000001100000001110000011000110000000011000110000111111000011111100000001110000001
10000000111111000000011000001111111111000000011100000000000100011111100000001000011000111110011100001110000000000000000011000000000000111110000111110000000000111111111110000000000000000011111100000011111111111100000000000000111100000000000000001111111111111111000111000000000000000111111110000000000000011111100000111110000001110000011100000000000000000000000000000000001111000011111100000000000111111000111100001111111111100000000000001110000011110000000000111000000000000111001111110000111111100000001100000000
11100000011111000000000000001111111100000000011111000000000000011100000000000000000000111111001111111111000000000000000111000000000001111100000111110000000000111111110000000000110001000011111000000000111111000000000000000000011100000000000000000111111011110111000011110000000000000011111100000000000000011111000000111111000111111000001110000000000110000000000000110000001110000011111000000000000111111100011110001111111111111000000000001111001111110000000001111110000000001111111111100011111111100000000000000000
11111000001111000000000000001110011000000000011111100000000000011000000110000000000000111111000111111111100000000000000111000000000011111000000111001100000000111001100000010001110011100011110000000000011110000000000100000000001000011000000000000011110001100001000011111111000000000011110000011100000000001110000110011111111111111100001100000000001111000000000001111000001110001111110000110000000011111100001111000111000011111100000000001111111111100000000011111111100000011111111111000011111001100000011000001100
00111000000111000000001110000100001000000000001111000010000000111000000111000000010000111000000011100011100000000000000000000010000111000000001110000100001000010000100000010000100001000011110000000000011110000100000000000100001000011100000000000011110000100001000000000000000000000111100000011110000100000000000100001110000000011100000000000100001111000010000001111000000100001110000000111000000011100000001111000010000001110000000100001110000000000000000011100011100000011100000000000011110000100000011100011100
00011000000011111111111111000000001000011100000110000010000111111000000111110000111000110000000000000001100000111111000000000011001110000001111100000000011000000000000000010000000000000011110000111000011110001110000000001110001000011111111111000011110000000001000000000000001110001111000000011111001100000000000100000000000000001100000000001110001111000000000001111000000000001100000000111111000011000000001111000000000000000000001110001100000000000110000011000001100000011000000000000011100000000000011111111100
00011000000000001110001110000000011100111110000111000011001111110000000001000000111101111000000000000000000000011110000000000011111110000011110000000000011100000000000000111000000000000001100001111000111100001111100000011110001000001111111111000001100000000011000000000000011110011111000000001111111110000000001100000000000000001110000000000110000111000000000001111100000000000000000000111111100111100000011111100000000000000000000000000000000000000000000011000001110000011100000000000011000000000000000011111110
00111000000000000000000000000000011111111111100111000011101111110000000000000000111111111000000001100000000000001100000000000011111100000111100000000000111111000000000001111000000000110000000001111000111100000111111000111110001000001111000011100000000000000011000000000000011100011110000000000111111111000000011100000000011100000111100000000111000011000000000001111110000000000000000000111111101111100000011111110000000000000000000000000000000000000000000011000001111000011110000000000011000000000000000001111111
01111000000000000000000000000001111111111111110011100011100011100011000000000000011111111110000011111000000000001100000000000011111000001111000000000001111111100000000111111110000001111000000001110000111100000011111100011100001000001110000001100000000000000111000000000000011000001110000000000001111111000000011100000000111110000111111100000011100001000000000001111111111100000000000000111110001111111000011111110000000001100000000000000001111111100000000011000000111000011111100000000011000000000000000000111111
01111000000000001110000000000001110000000011100001000000000001000011100000000000011100000000000011100000001000011110000100000011110000001111000000100001110001110000001110001110000001111000000011100000011110000001111000000000001000011110000001110000000000001111000010000000111000000100001110000000111000000000000000000000011110000000000000000111100001000000000001110000000000000000000000111100000000000000001110000000100001110001110000000000000000000000000011100000000000011100000000000011100000000111000000111000
01111000001000011111111111100001100000000001000000000000000000000011111111111000011000000000000011000000001100111111001100000011100000001111000000100001100000111000011110000110000001111000011111000000001111000000110000000000001100111110000001111111111100011111000110000111111000000000011111100000000000001110000000111000001110000000000000001111100001000011100001100000000000111111100000111000000000000000000000000000000001111111111000111000000000001111000011111100000000011000000111000011111111111111100000110000
00110000000100001100011111110000000000000001000000000000000000000111100111111100000000000000000000000000001111111111111100000000000000000110000000000000000000111000011110000000000000111000011110000000001110000000110000000000011111111100000000110000111110001111111111000111100000000001111110000000000000011111000000111000000000000000000000001111000001000111110001100000000001111000000000000000000000000000000000000000000000011111111111111000000000001111000000100000000000111100001111000001111111001111100000000000
00000000000011000000001111111000000000000111100000000000000000001110000000011110000000000000000000000000001111111111111100000000000000000000001100000000000000111000011110000000000000001000011110000000000000000000110000000000111111100000000000000000001110000011111111100011100000000001111000000000000000011111100000011110000000000000000000001111000011000111110001110000000001110000000000000000000000000000000000000000000000001111111111110000000000011111000000000000000011111100111110000000111110000111100000000000
00000000000011000000001111111100000000001111110000011111000000001110000000001111000000000011000000110000001111111111111100001000000000000000011110000000011000010000001111000000111000001000001110000011100000000001111000000000111111000000001100000000000110000000111111100001000000000001110000000000000000001111111000001111000000000111110000000110000011000011100001111000000000100000001100000001111000000000000000110000000000000111000111100000000000111110000000000000111111111111111100001000011100000011000000000000
01110000000111100000011100011100001000000011100000011100000000000000000100001111000010000000000001110000001110000000011100001000000000001000011110000000111000010000001111000000111100001000000111000111000000000001111000000000000111000000011100000000000111000000011100000001000011100011100000011100000000000000000000001111000000000000111000000111000111000000000001111000010000100000011110000001111000000011100000000000011100000010000111100000000000111100000000000000000000000000011100001000000000000111000000000000
11111100001111110000111000001100011100000000000000011000000111000000001110001111000010000000001111110000001100000000001100001000011100011100011110000011111000110000001111000000111110011000000011111110000011100001111000011100000011000011111100001110000111110000000000000001000111111111000000111111111111000000000000001111000011100000111100000111111111000000000001111000010000100000111111000001111000011111110000000011111110000000000111100001110000111000001111111100000000000000001100001000000000111111000001111111
11111000000111111000011000011110011000000000000000000000001111000000011110001110000110000000011111111000011100000000000000011000011100111000011100000001111101111000011111000000111110011000000011111111000011110000111000011100000011100011111110011110000111100000000000000000000011111110000001111100100001000000000000000110000111110000111111000011111111100000000000111101110000000000111111100000110000111111111000000011111111000000001111100001111000010000001111111110000000000000000000011000000000111110000000001111
11110000000011111110000000011111100000110000000000000000111110000000011110001100001110000000011100111111111000001100000000111000111001110000011100000000111111111000111111000000111110011000000001111111000111110000001000111000000001110001111111111100000111000000000000011000000000001110000001100000000000110000000000000000001111111000111111100000011111111000000000011111110000000000111111100000000011111110011100000011111111000000001111000000111100000000001101111110000100000000000000111000000000011110000000001111
01100000000000001110000001111111000000111000000100000011111100000000011100001000011110000000011000011111111000011110000001111000010000100000011100000000111111111000111111000000111100001000111000111111100011111000001000010000000001110000111111111000000110000000000000111100000000000110000011000000000000111000000000000000011111111110000111110000001100111000001100001111110000001000011111100000000011111000001110000010001110000000001110001000011110000000001000111000011111000000000001111000000000001110000000000111
01110000000100001111000000000000000001110000001110000000011100001000000000001000011110000000111000000000000000011110000001111000010000100000011110000001110001110000000111000000111100001000010000000111000000011100001000010000100000000000111000111000000111000000010000111100000000000111000111000000100001111000010000000000011100000000000011110000001000011100011100000001110000001000011100000000000011110000001111000010000100000010000100001000011110000100001000010000000111000000000001111000000000001111000010000000
01111110001110001111100000000000001111100000001111100000001100001000000000000000011110000111111000000000000000011110000001111000010001100000011111000011100000000000000011000000111100001000000000000000000000011110011000000000100000000000110000011000000111110000010000111100000100000111111111000001111011111000110000010000011000000000000001110000001000001111111100000000110000001000011000000111000011100000001111100110000000000010000000000000011110001110001000000000000011000011100001111000011100001111101111000000
11111111001111011111110000000000011111100000000111000000000000001000000000000000011100001111110000000000000000001111000001111100000001110000001110000111100000000000000011000000111000001100000000000000000000011111111100000001100000000000111000000000001111000000010000011110000000000011111111100000111111111101111000000000011000000000000000000000011000001111111110000000000000011100000000011111000000000000000111111100000000000111000000000000001100001110000000000000000011100011110011111000011100011111111111100000
11100111001111111111110000000000111111100000000000000000000000011000000000000000011000001111110000000010000000001111100001111110000011111110000000001111100000000000000001000000111000001111000000000000000000111111111110000001100000000000111100100000011100000000010000011111000000000001110111100000011111111111111100000000011000000001000000000011111000001111111111100000000000111100000000111110000000000000000011111000000000000111110000000110000000001110000001000000000011110001111111111000111000111111111111110000
11000010000110011100010000011111111111110000000000000000000000011000000110000000010000110011110000011111100000001111100001111110000111111111000000000111000011000001000001000000111000000111000000000000000001111110001100000011100000000000111111110000001100000000010000011111000000000001100011100000000011111111111100000000011000000011100000000111111000011111111111111000000000111000000001111100000000000001100000111000000000000111111000000111000000001100000011100000000001110000111111111000010000111000011001110000
00000010000100001000010000111000000001110000000111000000000000111000000111000000010000100001110000000011100000011100000001110000000111000111000000000000000011100011100001000000111100000011100000000000010000111100000000000111100001000000111000111000000000001000010000111000000000000011100001000000100001110000000000000000011100000001110000000111000000011100000000111000000000000000000000111100000000000011100000010000100001000011110000001111000000011100000011110000000000000000111000111000010000000000010000111000
00000011000000000000011101110000000000110000011111100011111111111000000111111000010000100000111110000001100000111100000001100000000110000011000011100000000011111111100001000000111110000001111111111000000000011000000000001111100011100000110000011100000000011100010001111000000111111111100000000001110000000000000000111000011111100000111100000110000000011000000000011000001100000001100000011100000111111111100000000000110011100001100000011111000011111100000011111000111100000000110000011000010000000000000000011110
00000111000000000000111111110000000001110000000111111011111111111000000011111100111000100000011111000011110001111000000000000000000110000001000011110000000001111111000011100000011111000001111111111000000000000000000000001111100011000001110000001000000000001000000001111000000011100011000000000001110000000000000001111000011111110000000000000110000000000000000000011100000000000011110000011000000011111111000000000001110001000000100000111111100011111110000001111001111100000000000000011110000000000000000000000000
00001111100000100000111111110000000011110000000011111001111111111000000011111101110000100000000111110011111111100000000000000000000110000001000011110000000001111000000011111100000011000001111111110000000000000000000000001111000100000011110000000000000000000000000001111100000000000000000000000001110000000000000111110000011111110000000000000111000000000000000000011110000000000011100000100000000001111110000000000011110000000000110000111111110001111110000001111000111110000000000000001111000011000000000000000000
00001111110001110000111111000000000111110000000001110000110011111000000011110001110000100000000011111111111111000001100000000000000111000001000001110000000001110000001100111110000001000011111111100000000000000000110000000110001100000011100000000000110000000000000000111110000000000000001100000000110000000000011111100000011111111100000000000111100000000110000000001110000001100001000001000000000001111100000000000011100000010000111000111111110000111110000001110000011111000010000010000111000111100001000000000000
00000001110000100000011110000100000001110000100000000000100001111000000111100000000000100001000011100000000111000000000000000000000111100001000000100001000011110000001000011110000001000011100011100000000000100001111000000100001110000000000000000001110000100001000000111000000011100000001110000000111000000000000011100000011100011100000010000111100000001110000000000000000011100001000000000001000011100000000000000000000000111000010000000000000000111100000011110000001111000010000000000010000111100001000000100001
00000000110000000000001100001110000000110001110000000000000000111000001111000000000000000001000011000000000011000000000111111100000111110011000000000000000111110000000000001110000001000011000001100000100000000011111100000100001111110000000111111111110001110011000000110000000111111100001111110000111111111110000001100000011000001100000111000111100001111110000111000000011111100000000000000001100111000000111111110000000111111000000000000000000000111000000111110000000111000110000000000000000111100001000000000011
00000000000001000000000000001111000000111011111000000000000000111100011110000000000000000011100011000000000011100000001111100000000011100011000000000000000111100000000000001111000000000000000000000001000000000001111000001110001111111000001111111001110000111111000001110000000011111100001111111000011111100010000000000000000000000000000011101111110011111111001111100000011111100000000000000011111111000000111100010000000000110000000000000000000001110000001111111000000111101111000000000000001111000000000000000011
00110000000011100000000000001111100000111111111110000000000100001111111000000000000000000011100011000111000001111000111110000000000000000011000000000000000111100000000000001111111000000000000000000110000000000000000000011100001111111100001111110000010000011111000011110000000000111000001111111000000011100001100010000000000000000000000001111111111111100111111111100000001111100000000000000111111100000000011100001100000000000000000000000000000111110000001111111000000111111111110000000001111110000000000000000011
01111000000111110011100000000011100001111111111111000010001110000111110000001111000000000011100011001111100001111111111100000000110000000011000000000000000011100000000000011111111100000000011000001110000000000000000000011100001111111110001110000000010000001111000011100000000000010000001111100110000001000001111111000000000000000000000001111111111111000011111111000000000111100000000000011111111000000000001000001110000000000010000111111111111111100000001111111000001111111111111100000011111100000000011100000001
01111000000111100001000000100001000011100000000111000010000100000011110000001111000000000001000010000111100000000000011100000001110000000111000000000001000011110000000000011100011100000000000000001111000010000000000000000000001110001110000100001000010000001111000000000000111000010000001111000010000001000011100011100001000010000001000011100000000111000000000000000010000111100000010000111000111000000000001000011110000000000010000111000000000000000000000001110000001110000000011100000011100000000000011110000001
01111000000111000000000001110000000111000000000011000110000000000001110000001111000011000000000010000011100000000000001100001111110000111111000011100011100011111000010000011000001100001110000000001111101111000011111110000000001100000110000000001100110000001111000000000111111100100000001110000000000000000111100011110011000110000001100111100000000011000000000000000000000111100000111101111000011000011100000000111110000111000010000110000000000000000111000000000000001100000000001100000011000000111000011111000000
11110000000110000000000011110000011111000000000011101111000000000001111000000111100111100000000111000001110000000000000000011111110001111111111111100111100111110000000000011000000000011111000000011111111111000000000000000000000000001110000000001111000000011111100000001111111111100000000000000000000000001111100011100011101111000001100111100000000000000000000000000000001111100000011111111000011100111100000000011110000111000010000000000000000000001111000000000000011110000000011110000000000001111100001111100000
11110000000110000111000111100000011111000000000001111111100000000001111100000011111111000000001111000001111000000000000001111111110001111111111111001110001111100000000000011000000000111100110000111111111111000000000000000000000000011110000000000111000000011111111000001111100111100000000000000000000000001111100111000011111111100001100111100000000000000000000000000000111111100000000111111000011100111000000000011110000011100011000000000000000000001110000000000000011110000000011111000000000011111100001111100000
11110000000100001111100111000000011100000000000001111111100000000011111100000001111110000000001111110000111110000000000001111100110000111000111110000100001110000000000000011000000001111000111000111111111110000000000000110000000001111110000000000010000100011111111110001110000011100000000000000000110000000111001111000001111111100001000011110000011000000000000000000001111111100000000011111100011100110000000000001110000001000011000000001100000110000100000110000000011111000001111111000000011111111000001111000000
01110000000100001111000010000000111000010000100000000000000000000011100000000000001110000100000001110000000111000000000001111000010000000000011110000100000000000000001000011100000001111000010000000000001110000000000001110000000000001110000000000010000100001110001110000100000011110000100000010000111000000010000111000000000000000001000011110000000000000000000000000011100011100000000000011100001000010000000000011110000001000011100000001110001110000100000000000000001111000000000000000000000000000000001110000000
00111110000100001110000000000011110000011001100000000000000111000011000000111000000110000100000000110000000011100011100001110000010000000000001110000100000000011100011100011111100001111000000000000000000110000011111111110000111000000110000111000010000100000000000110000000000011111001100000010000111110000000000011110000000000000001000011110000000001111111111110000111100001100000110000001100000000000000010000111110000001000011111000001111111110000000000000011000000111000000000000001110000000000000111100000111
00111111001110000000000000000001000000010001110000000000001111100011000000111000000000000000000000000000000001000111110000100000000000000000001100001110000000111111111100001111110000110000000000000000000000000111111111100001111000000000001111111110000110000000000000000000000111110001100000000000111100000000000001100000000000000001100001111000000001111000100000000111100000110000000000001100000000000000100000111110000001100000110000000111111111000000000000111100000011100000000000011110000000000000010000000111
01111111111110000000000000000000000000000001111100000000011111100011000000110000000000000000110000000011000000000011110000100000000000000000000000001111100000111111111000000111110000000000000000000100000000000011110111000011110000000000011111111110000111100000000000000000000111100001100000000000111000000000000000000000000000000001110000111110000000111000000000000111100000111100000000001100000000000011000000111110000001100000000000000111111111110000000001111000000011110000000001111100000000000000000000001110
11111111111100000000001000000000000000000000111111111111111111000011100000100000000000100001111000000111100000000001110000110000010000010000011000000111111000011111100001000011100000000000110000011111000000000001100011000111100000000000111111111100000111110000000000110000000111100001100001000000110000000000100000000000000000000001111000011111110000010000000000000011110000011110000000001100000000000111000000011110000001110000000000000011100011111000000011110000000001110000000111111000000000000000000000011100
00000000000000000000011100000001000011100000000000000000000000000011110000100001000000100001111000000111100000000000100001111000010000000000011100000000111000000011100001000000000000000001110000000111000010000001000010000111100000010000111000111000000111100000000000111000000011100011100001000000111000000001110000100000000000000001111000000000000000010000100001000011110000001110000000011100000000000111100000011110000001111000010000100001000000011100000011110000100000000000000000111000010000000000010000111100
00000000000000110000011111100011110111111100000000000000000000000011111000100011000000000001111000000111100001110000000011111100110000000000011111100000011000000011100001000000000011111111110000000011000111000001000010000111100000111000110000000000000111000000100000111111000001111111100001000000111111111111110001110001111111000001111000000000000000011001111011100011110000000111111111111100001110000111110000011110000001111101111001000000000000011110000011110000000000000111100000011000010000111000111001111100
00000000000000000000001111100001111111110000000000000000000000000001110000000011100000000001111000000111110011110000001111111100111000000000001111110000000000000011110011000000000001111111110000000011100111100001100111000011000011111000110000000000000011100000000001111111100001110011100011100001111111111111100001111111111000100000110000000000000000011111111111110111100000000000011111111100011111001111111100001111000000111111111110000000000000001100000001100000000000000111110000000000111001111111111100111000
00000000000000000000000111000001111111000000000000000000000000110000000000000111110000000001111000000111111111110000011111111100011100000000000011111000000000000111110011000000000000000111110000000001110001100001100111000000000111110000110000000000000001100000000001111111111000000000100001111111111110000111000000111111111000011000000001100000000000011111111011111111000000000000001111011100011111011111111110000011110000011111111110000000000000000000000000000000000000001111110000000000111111111111111000000000
00000000110000000000000110000000111100000000111111110000000111111000000000001111100000000001111000000111111111110000111111111000001100000000000001111000000010001111110011000000000000000011110000000001110000100001100111000000001111100000110000001100000011110000000001111111111100000000100001111111111100000011000100001111110000011100000011110000000000011001110001111110000000000000001110000100011100011100011111000001110000011111111100000000000001100000011000000000001000011111000011000000011111111111110000000000
00000001110000100000001110000001111000000000000000000000000000111000000000001110000000100001111000000111000000000000111000111000000100001110000000111100000010000111100001000000000001000011110000100000000000100001000011100000001111000000111000000000000011100000000000111000111000010000100000000000011100000010000100001110000000111100000011110000000000010000100001110000000000001000011110000100001000000000001111000000111000000000000000000000000000000000111000010000001000011110000000000000000000000000000000000001
00001111110001110000111110000011110000001100000000000011100000011000011100001100000001110001111000000110000000000000110000011000000000011111100000011110000010000011000001000001000011100011110001100000000000100000000000111000001110000000111111000000011111000001110000000000000000111001100000000000001100000000000100001100000001111100000011110000111000010000000001100000011100001100111110000100000000000000000111000000011111000000000000111111110000000111111000111000001000011100000000001110000000000000000011000011
00011111111011111111000000000011110000011110000000000111110000011000111110011100000011110000000000000110000000000001111000111100000011111111110000011100000111000000000001100000111111100011111011110000000000000000000000000000000000000000011111100000111100000011110000000000000000011111110000000000000000000000000111111000000011111110000011111000111100110000000000000000111110001110011000000110000000000000000110000000011111100000000000111111111000001111110000010000001000001000000000011111000000000000000000000001
00011111111111111110000000000011100000001111100000000111111100011000111111111110000011111000000000000100000010000001111101111100000011111111100010000000000111000000000001110000011111100011111111111100001100000000000000000000000000000000001110011000111000000111110000000000011000001111111110001000000000000000000111111000000011111111000011111100011111110000000000000000111110001110000000000111100000000000000000000000011111000011100000011111111100011111100000000000001000000000000001100111110010000000000000000000
00001111111111111110000000100001100000000111111000000111011110011000011111111111000011111000000010000100001111100001111111111100000111110011000111000000000111000110000001100000011111000011111111111111111110000000000000000000000000000000001100011100110000001111100001100000011100000110011111111110000000000000000111110000000001111111000011111100001111110000000000011000011100001110000000000011100011111000000000000000111110000111110000001111111111111111000000000000001000000000000011100011111111100000011000000000
00000000000000000111000000100001110000000111000000001110000100001000000000000111000000011100000010000100001110000000111000111000000111100001000010000000000010000111000000000000111000000011100000000000001110000000111000000100001000011100011100001000010000001111000000000000111000000100001110001110000100000000000111100000000000111000000011100000001110000000000000111000000000001111000000100001000011100000001000010000111100000011110000001110000000000000000000000000001000011100000001000011100011100000011100000000
00000000000000000011100000100001111110000110000001111100000000001000000000000011000000011110000010000000001100000000000000000000000111000000000000000111000000000111111000000001110000000011000000000000000110000111111100001111011110111111111100000000000000001110000000000111110000000100000000000110001110000100000111000000100000000000000011000000001100000011111111111000000000001111100001110000000011000000000000010000111000000001110000001100000000000000001111111100000000111111100000000011000001100000011111111111
00000000000000000011110000110000111110001110000001111000000000001100000000000011100000011111000011000000000000000000000000000000000000000000000000000111100000000011111000000001110000000111000000000000000000001111111110011111111111111111111000000000000000000000000000001111000000001100000000000011001100000000000111000000000000000000000111000000000000000011111111110000000000000111110001110000000000000000000000010000110000000001111000011100000000000000011111111110000000111111110000000011100011110000001111111000
00000000000000000011110000111000011100001110000001111000000000001111000010000001111000011111000011100000000000000000000000000000000000000000000000000111100011000001111000000001110000011111000000000000000000111111100111111101111111111111000000000010000000000000000000001110000001111100000100000011110000000000000111100000000000000000001111100000000000000001111110000000000000000000110001110000110000000000000000010000110000000011111111111100000000000001100111111110000000111111110000000011110011111000000001111000
00011000000000000001110000111100011000001110000000111000001100001111111111100001111111111111000011110000000000001110000001100000000000000000000000000111111111100001110000000000100001111111100000011111100000111110000011110000111111100110000001000111000110000000000000000100000011111000001110000011100000000000000111110000000000000000001111110000100000000000111100000011000001100000010000100001111000000000000000010000100001111111111111111000000000000011100011111111000000011111111100000011111111110000000000110000
00111000010000100000000000111100001000000111000000011100011100000000000011100000000000000000000011110000001000011110000001110000000000001110000000000000000001110000100000000000100001110001110000000000000000111100000011110000000111000010000001000010000111000111000010000100000011110000001111000000000000000000000111000000011100000000000001110000100001000000111100000011100011100000010000100001111000010000100000010000100001110000000000000000000000000001000011100011100000011100011100000011100000000000010000111000
11111000110001100000000000111100001000000011111000001111111100000000000001100000000000000000000011110000011110111110000001111111111100011111111111100000000000111000000000100000000001100000111000000000000000111000000011110000000000000000000001000000000111111111100110000100000011100000001111100000000111111110000110000000111111111111000000110001100001000000111100000011111111100000011000100001111000110001110000011000100000100000000000000001111111100000000011000011110000011000001100000011000000000000111000111111
01111101111011110000000000011000000000000001111100001111111100000000000001100000000000000000000001111000011111111100000000111111111111111111111111110000000000111000000000000000000000000000010000000000000000000000000011111000000000000000000011000000000011100111100110000000000001100000000111111000000000011110000010000000111111111111100000111011110111000000000000000111111111100000111101110001111101111111111000111000000000000000000000000011111111100000000111000011111000111000000000000111000000000001110000111001
00011111111111111100000000000000000000000000111100001111111100000000000001100000000000000001000000111100011111111000011000011101111011111100111111111000100000111000000000000000000000110000000000000000000000000000000001111000000000000000011111000000000011000011100110000000000000010000000011111100000000011100000001100000111101111111110000011111111111000000000000000111111111100000111111100001111111111111111001111100000000000000000010000011100001100000111111000111111111111000000000111111000100000001100000100000
00001111111111111111000010000001000011100000011100011111111100000000000011100000000000000011100000011100001111100000111100011000110001110000011111111111111000010000000100000000000000111000000000111000000000000001111000111000011000000000111111000000000011000001000010000001100000011000000000111110000000001000010001110000011000111111111000011111111111000000000000000111111111100000111111100001111111111111110001111110000000000001111111100001000000100001111110001111111111110000000001111110001110000011000000100000
00000000000000000111000010000001000011110000001000011100011100000000000111100000010000100001110000000000001111000000111100001000010000100000011100000000111000010000001110000000000001111000000000000000000000000001111000010000000000000000111000000000000111100001000010000001110000000000000000011110000100001000010000100000010000111000111000000000000111000000000001000011100011100000011100000001110000000011100000001110000000000011100011100001000000100001110000000111000000000000000001110000000111000111000000100001
11000000000000000011000010000001000011111000000000011000001100000100001111100000000000000000111110000000001110000000111100000000000000000000011000000000011000000000001111111111100011111000001100000001111111000001111000000000000001100000110000011110001111110011000000000001111100000000110000001110001110010000010000000000000000110000011000000000000011000001000011100000000001100000000000000001100000000000000000000110000111000111100001100001000000100000100000000000000000000011100001100000000011111111000000000011
11100000000000000111101110000001000011111100000000111000001110000001111111100000000000000000111110000000011100000000111000000000000000000000011100000000011000000000000111111111100111111000000000000011111100000000110000000000000011110000000000111111111111111111100000000011111000000001111000000111001111110000011000000000000000000000011100000000000000000000000001000000000001110000000000000000000000000000000000000110000111011111100011110000000000000000000000000000000000000111100001100000000000001111100000000000
11100000000000000111111110000001000011111100000000111000001111000001111111100000001100000001111100000000111000000000110000000000000000000000011110000000011000000000000111111111001111111000000000001111111000000000000000000000000111100000001001111111111111111111100000000111110000010001110000000111100011110000011100000000000000000000011110000001000000000000000000000011100000111111000000000000000000000000000000000010001110011111100011111000001100000000000000000000001110000111000001110000000000000111110000000000
01100000110000011111111110000001000010000100000000111000000111000001111001100000001110000011111000000000111000000000110000000000000000000000011111000000111000000000000011100110000100001000000000011110111000000000000000000000001111000000011111111100011111111111100000000111110000111001100000000011100001110000011100011100000000000000001110000111110000011000000000000111110000111111100000000100000111111000000111000010000100001111111111111000011110000000000000000000011111000010000001111000000000000111110000000000
01110001110000000000001110000001000010000100001000011100000000000001110000100000011110000000111000000000000000010000111000111000000000000000011100000001111000010000100001000010000100001000000000001000010000111000000000000000001111000000111000111000000000000111000000000000111000010000100000000000000001111000000000001110000000000000000000000111000000011100000000000001110000000111000010000100000000000000001111000010000100000000000000000000011110000100001000000100001111000010000001111000010000001110000000011100
01111111110000000000000110000001100010000100001000001111100000001111100000100000111110000000011000011100000000111000111111111100011111111000011000000011111000111001100000000000000100001000011100000000000001111111111111111100001111000001111000000000000000000000000001100000111100000000000000110000000001111100000000000111111111111111000000000110000000011111111111000000110000000000000000000100000000000000011111000110000100000000000000000000011110001110011000000000000111000010000001111000010000011110000011111110
11110011111000000000001110000011100000000000011100000111100000011111000000110000111100000000000000111110000001111000000111111000011111111000111100001111110000011111110000000000001110000000011100000000000111111111111111111110000110000011111000000000000000000000000000000000111111000000000000010000000011111000000000000011111000000001000000000000000000011111110000000000111000000000000000001100000000000000001111101111000000000000000000000000111111011110011100000000000110000000000001111000000000111100000111111111
11000001111110000000011110000111110000000000011110000111000000011110000000111100111100000000000001111111000011111000000011110000001111110001111110001111100000001111111100000000001111000000001111000000001111111110000111111110000000001111111000000000000010000000000000000000111111000110000000001100000111100000000000000011100000000000110000000000000000011111000000000000011100000011000000011100000000000000000111111111100000000000000000000011111111111110011110000000001000000000000001111000000000111110000111110011
11000001111111111111111110000111111000010000011111000010000000011100000000011100011000000000000011111111100011100000000001100000000111100001111111001110000000000111111110000000011111000010000111100000011111111100000011111001100000011111111100000011111111100000000000000111111110001110000000001110001110000000000000000011000000000000111000000000000000011110000000011000011100000011100000111100000000001100000001111111100001100000000000111111111111111100001111100000010000010000100001111000000110011110000111000001
00000011100000000000001110000000111000010000001111000010000100001000000100001000011100000001000011100011100001000010000001110000000111100000001110000100000000000111000111000000111000000010000111100000011100011100000011110000100000011100011100000011100011100000000000000000000000000111000000011110000100000000000000000111000000000001111000000111000000011110000000111000000000000111000000111100001000000000000000000000000001110000000000000000000000011100000001110000000000010000100001111000000100001111000010000001
00000111100000000000000110000000011000000000000111000010001110000000001110000000011111100011100011000001100000000111000001111110000111100000000000000000000100000110000111100001110000000010000111100000011000001100000011100000000000011000001100000011000001100001111111100000000000000011111000111110000000000111111111111111000011100011111000001111111000011110000011111000000000111110000000111100011100000000111000000000000001111111111110000000000000001100000001111000000000011000110001111000000100000111100000000001
00001111000000000000000111000000011000000000000000000000001100000000011110000000111111111111100000000000000000000111100011111111000111000000000000000000000000000000000111100000110000000011001111100000111000000000000000000000000000011100011110000000000001110011111111110000000000000000111000011111000000000000111111111100000111100011111100001111111000001100000001111000000000000000000000011110111111000000000000000000000011111111111111000000000000000000000001111000000000111101110000110000000100000011000000000011
00001111000000000000000011111000001000000000000000000000010000000000011100000111111001111111100000000000000000000111111111111111000110000110000000000000000000000000001111100000000000000011001111000000111000000000000000000000000000011110011111110000000011111111100001111000000000000000011000011111111100000000111111111000000111000011111110001111111000000000000000111000000000000000000000001111111111000110000000000000000111111100011111100000000000010000000011111000000000111111111000000000000100000000000000000011
00000111000110000001100001111100001000000001000000010000110000000000111000001111110000111111000000000000001100000011111111111110000100001111000000000000000000110000011111000000000000000011001110001000111000000001100000000010000000011111111111111000000111111111000000111100000000000000001000001111111111110000011111110000001110000001111110000111110000000000000000111000000000000000001000000111000111001111000011000000000111111000001111111111111111111000000111110000000000111111111100000010000110000000000000000011
00000010000111000000000000111100001000000011100000010000111000111000010000001110000000111000000011100000001110000000000000000000000100001111000010000001110001110000000111000000011100000010000100001000010000100001110000000111000000011100000000111000000111000111000000111100001000000000001000011100000000111000000011100000011110000001110000000111100000001110000001111000000000000000011100000000000010000111000111000000000000111000000111000000000000011100000001110000001000011100011100000010000111000000000000100001
00000000000111111000000000011100001000011111100000010000111111111100000000001100000000110000000111111000001111110000000000000000000100001111000010000011111111110000000011000001111110000000000000001000000000000001111100000111111000011000000000011000000110000011000000111100011000011100001100111000000000011100000000000000111110000001100000000111000001111111000011111000001111111000011111100000000000000011111111000001100000010000000000000000000000001110000000110000011100000000001100000010000111111111110000000000
00000000000011111100000000011110111000011111000000011101111101111100000000001100000001110000001111100000011111110000000000000000001110001111000010000111111111100000000011100000011100000000000000001000000000000011111000000011111100000000000000000000000000000000000001111110111101111100001100111000000000011110000000000000011100000000000000001110000001111110000001110000000111111000000000000000000000000000111111100000000000000000000000000000000000001111000000000000111100000000011110000010000111111111111000000000
00000000000001111100000000011111111000001110000000011111110000111100000000001110000011110000001111000000011111100000111000000011111100001111000010001111100111000000000011100000000000000000000000001110000000001111110000000000011110000000001000100000000000000100000011111111111111111100001100111000011100000110000000000000001100000000000000011110000001100000000000000000000011111000000000000000000000000000011111110000000000000000000000000000000000000011110001000000111110011100011111000010000111011111111000001100
00000000000000011100000000111111111000000110001000011111100000011000000000001111000011100000001110000000011111000001111100000111111100001111000010001110000011000111000011100000000000000000000000001111000000011111110000000000001111000000111111110000000000011110000001111111111111111000001000010000111110000011000000000100000000000000011000011100000011000000000000000000000011110000000000000000000000100000001111110000001100000000000110000011000000000001111111100000111111111111111111000010000100001111110000001110
00000000000100001110000000111000111000000100001000011100000000111000000000001111000000000000000000000100001111000000111100000011100000001111000010000100000010000111100001000000000000000001110000001111000000111000111000010000001111000000111000111000010000000111000000000000000001110000001000010000111100000011100000001110001110000000111000000000000111000000011100000000000111100000000000111000000001110000001110000000011100000010000111000111000000000001110001110000000000000000000000000010000100001110000000011100
11111110001110000111110000110000011000000000001000001000000111111000011100001111000000000111000000001110000111000000011100000000000000001111000110000000000010000111110000000001111111111111111000001111000001110000011100110000001111000000110000111100000000000111100000000000000000000000001100000000111000000011111000001111111111000111111000000000111111000001111110000100001111000000100001111111111111110000001100000011111100000111000111111111000011100001100000111000000000000000000000000000000100001100000011111000
11111111001110000111111000000000001100000000001100000000000111111100111100000110000000001111000000001110000110000000011110000000000000000110000111000000000111000011111100000000111111111111111100001110000011110000011111111000011111000000000000011000000000000011000000000000000000000000011100000000011000000111000100000110001110001111111100000001111110000010011111000000011111000000000011111000000011100000001100000111111100000111101111111111101111110000000000111100000000000000000000000000000000000000000111111000
11100111001110000111111000000000001111000000001100000000000011111100111000000000001100001110000000001111001000000000111111000001100000000000001111100000001111000001111100000000011111111100001100001100001111100000001111111111111111000000000000000000000000000000000000000000000000000000111110000000000001111110000011000000000000001110011111000001111100001100000011100000011111000000000011000000000000000000001110000111111100000111111111011111111111110000000000001100000000000000000000000000000000000000011111011100
11000010000100000100111000001100000111000000001110000001000001111100110000100000011110000100000100000111110000011111111110000011110000100000011111100000001110000000011100000000011111111000000100001000011110000000000111111111111111000010000011000000000000111000000110000011111100000111111111000000000011111100000011100000000000001100001111110000111000011100000001100000001111000000000010000000000000000100001111000111001100000011001110001111111111001100000000000110000011000000000000000000110000000001111110001110
00000010000100001000011100011100000011100000001111000000000001111000010000100000011110000100000000000111000000011100000000000011110000100000011100000000000000000000001110000000111000111000000100001000011110000100000011100000000111000010000000000000000000000000001110000000000000000111000111000000100001111000000111100000000000011100000001110000000000011110000001110000000111100001000010000000000010000100001111000010000100000010000100001110001110000100000000000111000111000010000000000001110000000000001110000100
00000000000100001000001111111100000001111000001111100000000001110000000000100000011110000000000000000110000000011000000000000011110000100000011000000111000000001000000111110001110000011000000100001000011110000100000000000000000011000000000000001111111100000001111110000000000000000110000011000001110000110000001111100000111111111100000000110000000000011111000001111110000011110011100110000111000111000100001111000000000100000010000000001100000000000000001110000111111111000010000111111111110000010000000110000000
00000000001110011100001111111110000001110000000111110000000011110000000001100000111111000000000000000000000000010000000000000001110000100000011000000111000000000000000011110000110000000000000000000000011111011100000000000000000011000000000000011111111110000011111100000000000000000000000000000001110000000000001111000000011110000000000000000000000000001111100011111110000011111111111111001111000011000100000111100000000000000111000000000000000000000000001111000011111111000111001111111111111000000000000000000000
00000000011110011100001111001111000001100000000011111100000011100000000011100000111111100000000000000000000000010000000000000000010000100000011000000110000000000000000011100000000000000001100000000000011111111100000001100010000001000000000001111111101110000011111000000000000001100000000000000001110000001000001111000000001100000000000000000000000000000111110011110110000001110011111111111111000000000110000011111000000000001111000000000000000000000000000111100001110111000011111111111100111100000000000000000000
00000000011100011100011110000110000011100000000001111110000011100000000111100000111111000000000011000001100000010000011111110000010000100000011100000100000000000000000011000000000010000011110000100000011111111100000011111111100001000000000011110111000110000001110000000111111111110000000000010000110000001100000111000000001100000000000000000110000000000000110011100011000001100001111111001110000000000110000001111100000100001111110000100000110000000001000011110001100001000011111111111000011100000000000000100000
00000000000000001000011110000000000011110000100000001110000001110000000111100000011100000001000011100011100000010000111000111000010000100000011110000100001000000111000111000010000000000011110000100000011100011100000011100011100001000000000001000010000111000000000000000000000001110000100000010000111000000000000111100000011110000001000010000111000000010000100001000011100011100000001110000100000010000111000000001110000100000001110000100000000000000001000011110000100001000000000000111000000000000000010000100001
11111110000000000000011110000000000011111011110000000110000000111110000111100000000000000011100011111111100000011001111000111100010000100000011111000100000000001111111111000111000000000011110000100000001000001100000001000001100001000011100000000000000111111000000111100000000000110000100000010000111111000000000111110000111111000011100000000111111000111000100000000011111111100000000000000000000111000111111000001111001100000000110001100000000011100000000011110000000000000000000000011000000000111000111000100001
11110000000000000000111100000000000001111111111000001111000000011110000111110000000000000011110001111111100000000111111000111100000001100000001110000000000000011111001110000011100000000001100001110000000000000100000000000000110011100011100000000000001111111100001111110000000000000000100000011101111111100000000011100000011111100001000000001111111011111111110000000111111111110000000000000000000111000111111000001111001110000000000001110000000111110000000001100000000000000000000000000000000001111111111101110000
11100000000000000000111100000000000000111111111100011111100000001100000111111000011100000011111000111011100000000111111001111100000011100000000000000000000000011110000110000001100000000000000001111000000000000100000000000000111001111001111000000000011111111110011111110001000000000000100000011111111111111000000000000000000001110000000000001111110011111111111100001111001111110000000000000000000111000111111000001111000111110000000011111100001111110000000000000000000000000000000000000000000001110111111111110000
11000000110000000000111100001100000000001111111000111111111000001000000111111111111111000001111000110000100001000011111111111000000111100000000000000001100000011100000110000000100000000000000000111110000000000100000000000000111000111000111100000000011100011100111111100011100000000000100000011111111110111100000000000000000000110000000000001111100001111111001110001110000111110000000000000000000010000111110000011110000011111000000111111111111111100000011000000000000000000011100000000011000001100011100011100000
00000001110000100000011100011100000000000111000000011100011100001000000111000000000000000001111000010000100001000000000000111000000111100000000000000001110000000000001111000000100001000011100000000111000010000100001000010000000000010000111100000000000000001000011100000001110001110000100000011100011100001000000000000111000000111000000010000111100000001110000100000000000111100001000000011100000010000111100000011110000001111000000111000000000000000000111000000100001110000000000000000011100011100001000000000000
00001111110000100000001111111100001100000000000000000000011110010000000110000000000000000001111000000000000001000000000000011000000111100001111111000001111110000000011111100000111011110111111100000011101111001100011101111000000000000000111100001110000000000000000000000000111111111000100000011000000000000000011111111111100000111110000111000011100000000000000000000000000111000001000011111110000010000111000000011110000000111000000110000000000000000011111000000000011111110000000010000011111111100000000000000110
00011111100000000000000011111110011110000000000000000000001111110000000000000000000000000011110000000000000001000000000000000000000111111111111000000001111111000000001111000001111111111111111110000011111110001111111111111110000000000001111000011110000000000000000000000000011111110000000000111000000000000000111111111111110001111000000111000011000000000000000000000000000000000001101111111110000000000000000000001111000000110000000111000000000000000001111100000000011111000000000000000001111111000000000000000000
00011100000000000000000001111111111100000000001110011100000011110000000000000000000000001111100000000000000011000000000000000000000111111111100000000001111111000000001110000001111111111111101110000011111000000111111111111111100000001111110000111100000000000000000000000000001111100000000111111100000000000011111000111111111111100000000111100100000110001110011100000000000000000001111111111110000000000000000000001111000000000000000111100000010000000000111110000000011110000000000000000001111111000000000000000000
00001000000100001111000000111111111000000000011111111111000001110000000000000011000001111111000000000000000011000000000000000000000110011111000000000001111110000000000100000001111110001110000110000001110000000011111100001111110000011111100001111000000000000000011000001000000111100000001111111110000000000111110000011100011111000000000011111000001111111111111110000000000000000001111111001100001000010000000000001111000000000010000111110000111000000000111110000000001100000011000000000001111111000000001110000000
00001000000100001111000000111000111000000100001110000000000001111000010000000111000000000000000000000111000111000000000000111000000100001111000000000001110000000100001110000000111100000000000111000000000000000001111000000111000000011100000001111000010000001000011100011100000011100000001110001110000001000011110000001000011110000000000011100000001110000000011100001000000000000000001110000100001000010000001000011110000001000010000111000000011100000001110000000000001110000000000001000011100011100000011110000100
00000000000100001111000000110000011000000000000000000000000001111100110000011111000000000000001110001111111111000011111111111100000000000111000011100001100000000000011111110000011000000000000111111000000111100000110000000000000000011000000001111000010000001100011111111100000001111100001100000110000000000001110000000000011100000010000011000000001100000000000000000000001111111000000000000100001000110000000000111100000001000000000010000000001111100011110000001000001111110000000011110111000001110000111110001110
10000000001110001110000000110000000000000000000000000000000000111000110000001111000000000000001111000111001111000011111111111110000000000110000011110000000000000000011111111000000000000000000011111100001111100000000000000000000000000000000001110000111000011100000111111000000001111110001100000000000000000000000000000000111100000000000111000000011100000000000000000000000011111000000000001110000000111000000000111100000001000000000000000000000111101111110000000000011111111000000011111111000000100001111110001111
11100000001110001100000000100000000000000000000000000000011000000000110000000111000000000000000111000000000111000111000011111110000000000000000001111000000000000000011111111110000000000000000001111100011111100000000000000000000000000000000001100000111100011110000111110000000001111110001110000000011000000000000000000000111110000000111111100000111000001110000000000000000011110000000000011110000001111100000000111000000001100000000000000000000111001111110000000011111100111000100011111111000000000011111110001111
11110000001110001000010000100001100000000000010000001111111100000000110000000011000000001100000011000000000011000010000001100011000000000000010000111100000000000000001111111111000000111110000000111000111111100000000000000000111000000110000001100000011100011110000011100000000001001110001111000000111100000000000000000000111111000000111111110000111000011111000000100000000001100000100000111110000011111100000000011000000001100000000000000010000010000111111100000011111000011001110001111110000000000111100110000111
00111000000100001000010000100001110001110000000000011100011100000001110000000111000000011100000011100000000111000010000001000011100000001000010000111100000000000100001110001110000001110000000000000000011100000001000011100000000000001110000001110000000000001111000000000001000010000100001111000000111100000000000111000000011100000001110001110000000000011110000001110000000011100000000000111100000011100000000000011100000001110001110000000111000010000000000000000111000000010000100001110000000000000111000010000000
00011100000000000000010000100001111111111000000000111100001100001111110000111111000011111100000011111111111111000000000001000011111100000000000000111100001110001110001100000100000011100000011000000000000000000001100111111100000001111110000001111111000000000111100000000001000010000000001111000000111100001110001111110000000000000011100000110000000000011100000001111111111111100000000000111000000011000000111000011111100001111111111000111111000010000000000000001111000000010000000001100000001111111110000010000000
00001000000000000000011101100000111111111100000001111100000000011111110001111110000011111000000111110001111111100000000000000001111100000000000001111100011111111110000000001110000111100000010000000000000000000001100011100000000011111111000001111111100000000111100000000001100111000000000111100001111000011111000111111000000000000001100000110000000000001000000000111111111111000000000000000000000011000001111000111111100000000011111111111110000000000000000000011111000000111000000000000000000111100000000010000000
00000000000110000000011111100000000111111100000011111000110000011111110001111000000001110000111111000000011111111000000000000000111000000000000001111100011111111100000000011110001111000001100000000000011100000001100000000000000011100111100001111111110000000011100000000001100111000000000011110001111000011110000011110001000110000000000000010000000110000000000000011111111000000000001100000000000011000001110001111111000000000001111111111000000000000000000000011111000001111000000000000000000011000000000010000000
00000000001111000000011111100000000011111000000111110001110000001111110001110000000000110001111110000000001100111000011100001000110000000000000001111100001111110000100000111111001110000011100000000000111111000001100000000000000011000011100001100111111111100011000000000001100111000000000001110001111000011100000001100011100111000000000000010000011111000001110000001111110000000000111110000000000011000001100001111110000100000001111111110000010000100001100000011111100001111110000000001100000011000000000110000000
00000000000011100000011100000001000011110000001110000000111000000001110000100000000000100001110000000000001000010000111100001000010000000000010000111100000001110000100000011110000100000011110000000000000000000001110000000111000111000000000001000011100011100001000010000001000011100000000000000000111100001000000011100001000010000100001000010000000111000000111000000001110000100000001110000000000011100011100000001110000100000011100011100000010000100001110000000011100000001110000000000000000111100000001110000100
11111100000001110000001000000011100011100000011100000000011111000000110000000000100000100001100000001000001000000001111100001000010000111000111000011100000000110000100000001100000000000011111000011000000000000001111100001111111111000000000000000000000001100000000010000001000001111111111000000000011110000000001111100000000000001110011000000000000011000000011110000000110001110000000110000111000011111111100000000110000100000111000000000000010000100001111110000001100000000110000111000000001111110001111110001100
01111000000001111000000000000011100011000000111100000000000111100001111100000000000000000000000000000000011000000001111110000000000001111011111000001100000000111000000000000000000000000001111110000000000000000000110000000111111110000000000000000000000000000000000011000001000000111111111000000000011100000000000010000000000000001111100000000000000000000000001100000000000000100000000111001111000111111111000000000000000100001111000000000000011101100000111110000000000000000000001111000000001111111111111111111110
00110000000001111100000000000011100010000001111100000000000011100011111110000000000000000000000000000011111000000001111111000000000011110011111000000100000000011100000000000000000000000000111110000000000000000000000000000010011100000000011000001000000000000110000011100001110000111011110000000000110000000000000000000011000000111111100000000000000000000000000000000000000000000000000111111110001111111110000110000000000100001100000110000000011111100000111110000000000110000000011110000000001111111111100011111111
00110000000000111110000000000001000010000011111000000100000001100111001111000000000110000000011000000011111000000000111111000010000111100001111100000100000000011100000000000000010000011000001110000000000000011100000000000000001100000011111100011100001000001110000011100001111000010001100000000001100000000001000000000011100001110001000011000001100000000000000000000000000000000000000011111100001111111100001111000000000100001000001110000000011111100000111100000000001111000000111100000000000110001111000001111111
01111000010000000111000010000001000010000111000000001110000001000010000111100000001110000000111000000111000000010000111000000010000111100000001110000100001000000000001000010000111000111000000100001000010000111100000000000100001110000000011100001000000000001111000000000001111000010000100001000000000000000011100000000111000000100001000011100011100000000000011100000001110000000000000000011100000000000000001111000010000100001000000111000000011100000001111000000100001111000000111100000010000100001111000000111000
11111100110000000111100110000001100011001110000001111110000000000000000011110001111110000011111000001110000000000000110000000000000111100000001111001100011000000000001000000000111111111000000000011110111101111100001110001110001111110000001100000000000000001111100000000001111000000000100011000000000111000011111111111110000000000001100011111111100001111111111110001111111000111111111000001100000000000000001111000111001100011000000011111000011000000011110000000000001111000000111100000010000000001111000000000000
11111111110000000111111110000011110111000100000011111100000000000000000011110001111111000001111100000110000000000001111000000000000011000000000111111111111100000000001100000000011111100000000000011111111111111100001111001111000111111000011110000000000000001111110000000000110000000000000011100000000111100000000111111110000000000011100111110111110001111111111111111111110001111111111100000000000000000000011110000110001110111100000011111100011100000111100000000000000110000000111000000000000000111110000000000000
11111111110000001111111110000111111111000000000011100000000000000000000011110000111111100000111111000000000000000011111000000000000000000000000001111111111110000000001100000000001110000000000000011111111111111100000111001111100000111110011111000000000000001111110000000000000000000000000111111000000111111000000011111100000000000011111111100001111000111111111111111111100001111111111110010000000000000000111100001000001111111100000111111100011110011110000000000000000000000000100000000000000001111000000000011001
11100011110000011111111110000111111110000000000011000000110000000000000111100000011111000000111111100000000000000011111111000000000000000001100000110011111111100000001110000000001100000000000000001111111111001100000010000111100000011111111111000000000000001000011000001100000011000000001111111110000011111000000000011100001000000011100111100000111000011111000111111111000000111000111111111000000000000000111000011000000111111100001111111000011111111100000000000000000000000000100000111000000001110000000000111111
01000011110000001110001110000000000000000000000111000000111000000010000111100000011100000001110001110000100000000000000000000000000111000000000000100001110001110000001111000000011100000000000100001110001110000100000010000111100000011100000000000000000000001000011100011100000011100000001110001110000001111000000100001000011100000001000011100000000000011110000000000000000000000000011100011100001000000000000000011100000000111000000000000000011100011100000000000111000000000000100001111000000011100000010000111000
00000011110000000000000110000000000000011111111111000000111110000000000111100000011000000011110001111000000001110000000000000100001111111000000000000000000000111000001111100001111100001110000000001100000000000100000010000111100000011000000000001111111100000000011111111100000011111100001100000110000000111000001110000000011111100000000001111100000000011100000000000000011000000000000000001110011000001100000000011111100000000000000000000000011000001100001110001111111111110000110011111000011111000000010000110000
00000111100000000000000100000000000000000011111000000000111100000000000011110000111100000111100000111110000001110000000000000011111111111100000000000000000000010000011111100000000000001111000000000000000000000110000011000011110000011000000000011111111110000000000000111110000011111110000000000110000000010000000100000000001111110000000001111110000000111000000000000000000000000000000000000100011100000100000000111111110000000000000000000000000000001110011111111111001111111000110001110000011111000000010000111000
00011110000000000000011000011000000000000011110000000000111000000000000011110001111100011110000000001110000011100000000000000001111111011100001100000000000000000000111111100000000000000111000000000000000000001111000011100001111000011000000000011111001110000000000000011111000011111110000110000010000000000000000000100000001111111100000000001111100011111000000000000000000000001000001000000000011110000011000000111111110000000000000000000000000000000111111111111000000111111000110000000000111000000000010000111100
00011100000000010000111000111100000000000001100000000000111000000000000011110001111111111100000100000110000011000000000000000001111100001000011110000001100000000000111111000000000001000011100000000000000000011111000011110000111000011000000000001110000111000000000000011111000011001110000111000010000000000000000001110000001111001110000100000111111111110000111100000000000000011100011100000000001100000011100000111111100000000000000000000011000000000111111111110000000111110000110000000000110000010000010000111110
00111000000000000000010000111100001000000011100000010000111100001000000011100000000000011100000000000111000111000010000000000011100000001000011110000001110000000000000111000010000001000011110000000000000000111000000011110000000000011100000000000000000111100001000000111000000010000100001111000010000000111000010000100000001110000100000000000111000000000000111100001000010000001000011110000000000000000111100000011100000000000000000111000111000010000000000001110000001110000000111000000001110000000000010000111000
11110000001000000000000000111100001000011111100000111000111110111100011111000000000000001100000000000111111111000010000111000111100000001000011110000001111111111100000011000111000001000011111000111111110001110000000011110000000000011111111111000000000111110011000001110000000000000000011111000000000111111100111000000000111100000000000000000110000000000000111100011000111000000000011111000111000000001111100000000000000111111110001111111111000110000000000000110000011100000000111111111111110000000000010000110000
11110000000000000000000000111000011000011110000000111000111111111100111100000000000000001110000000001111111110000000001111111111100000001100001100000000000011111110000000000111100001110111111111111111111111110000000001100000000000111111111111100000000111111100000011110000000000000001111111100000000111111000111100000000000000000000000000001111000000000000011110111100111100000000111111111111100000001111100000000000000000111111111111111111101111000000000000111000111100000000011000011111000000000000000000000000
11111000000000000000000000110000111000001110000000111000111111111100111000000000000000001110000000001111111100000000111111111111100000001110000000000000000001111111000000000111100001111111111111110111101111100000000000000011000011111001111111110001100001111100000011110000000000000001111111110000001110000000001110000000000000011100000000011111000100000000001111111110001100000000111111111111110000001111100000000000110000111111111111110011111111100000000000111111110000000000000000000111000001100000000000000000
01111100000000000111100000100001111000000100000000010000110011111000010000000010000000001110000100001111111000000000111110001111111000001111000000000000000001111111100000000011100001111111111001100011000111000000000000000111111111110000111111111111110000111000011001110000000000011000111111110000001100000000000110000000000000111110000000011111111111000010000111111110000100000000111101111111111000000111100000100001111000111100011111100001111111111000000000011111100000000110000000000010000011110001000010000000
01110000000000001110000000100001111000000100001000010000100001111000010000000111000000011100000000000111000000000000111100000000000000001111000000000000000011100011100001000000000001110001110000100001000010000000000000000111000000000000111000000001110000000000010000111000111000010000000000000000011100000000000111000111000000111100001000000000000111000010000000000000000100001000010000111000111000000111100000000000111000111000000011100000000000011100000000000011100000001110000000000010000111100001000010000000
01100000011100011100000000000001111000000110011100011000000000111000000000111111000011111000000000000000000001110000111000000000000000001111000011111111000111100001100011100000000001100000000000000000000000000011111110000110000000000000110000000000110000000000000000011111111100000000000000000011111100001110000111111111100000111000001000000000000011000000000000000000000100000000000000000000011000000111100000000000011111110000000001100000000000011110001110000001100001111110000010000011001111000001000010000111
00000000011111111100000000000011111000000110011110111000000000110000000000111100000111110000000000000000000001110000000000000000000000011110000011111111001111100011110011110000000000000000000000000000000000000000111110000110000000000000000000000000111000000000000000001111111110000000000000000000010000001111001111111111110000000000001000000000000111100000000000000000001100000000000000000000111100000011100000000000011111100000000000000000000000001100011110000001110011111111000000000111000111000011000010000111
00011000001111111100000000000011110000000110011111111100000000110000000001110000000111100000000000000000000000111000000000000000000001111100000001111110001111110011111000111100000000000000000000000000000000000000111110000110000000000000000000001000111100001000000000001111111111000000000000000000000000001111111111111111111100000000111000000000001111111000000000000000111100000000000000000001111110000001100000000000011111000000000000000000000000000000011100000001110011111111100000111111000000001111000010000111
00011100000111111000000000000011100010000100001111111110000001110000000001100000000111000000000000111000000000011000000000000000000111111000000000111100000111111111111000011110000100000000000000000000000000000000111100000110000011000010000000011100011100011100000000000111111110000000010000011000000000000111001111111111111110000001111000000000011111111100000011000000111000000000000000000011111110000001100000000000111110000001000000001100000011100000011000000001110001111111000000111110000000011111000010000011
00111000000111000000011100000001000010000100001110001110000001111000000011100000001110000000000001110000000000011100000000000010000111000000000000111100000011100000000000011110000100001000000100001000011100000000111000000111000111000010000000111000000000001110000000000000000000000000000000011100000000000010000111000000001110000001111000010000001110001110000000000001110000100001000000000001110000000011100001000000111100000011100000001110000000000000111000010000100000000000000001110000000000001111000010000001
11110000000110000000111111000000000010000000001100000110000001111100011111100001111100000111111111100000111000011111111111000000000110000001110000111100000000000000000000011110000100001000001110011100111111111111110000000111111111000010000011110000000000000111111111100000000000111100000000011111111111000000000000000000000110000001111000000000000000001111000000000111100001110001000001000000000000011111100001000000111000000011111100001111110000000111111000111000000000000000000011100000011000000111000010000000
00000000001110000001111111100000000010000000011100000111000000111110011111000001111000001111111111110000111100011100111111000000000000000001110000011000000000000000000000001111011100011100000110001100111111111111100000001111111111000111000001110000000000000000011111110000000001111110000000001111111111100000000000000000000000000000110000000000000000000110000000000011100001110000000000000000000000111111111111000000000000000001111100011111111000001111110000110000000000000000000001100000000000000011000111000000
00000011111110000001111111000000000011000000111110000011100000000111001111000001111000001111000111110001111100010000011111000001100000000000111000000000000000000000000000000111111100001110000000000000111111011111000000011111111111000011100000110000000000000000000001110000000011111110000000000001111111100000010000000100000000000000000000000000000000000000000000000001110011110000000000000000110000111000111111000000000000000000111000111111111100011111100001000000000000000000000000000000000000000011000011100000
00000111111100000001111110000010000011000000111111000011111000000010000111000001110000001110000011111000111000010000011111000001110000000000011000000000000000000011100001000011111100001110000000000000011110001110000011111111110011000011000000111000001111110000000000110000000111111100000000000000110011100000111000011111000000000000000000000001000000110000000110000001111111100000000000000001111000010000011111000000000000000000110000111111111111111111000011000000000010000000000000000000000000000011000011000001
00000011100000000000001110000000000011100000000111000000011100000010000111100000000000011100000011110000000000010000111000000011110000100000011100000000000000000111100001000000011100000000000000000000011110000100000011100011100001000000000001111000000000000000010000111000000011100000001000010000100001110001110000000111000010000000000000000011100000000000000000000011100011100000010000100001111000010000001111000010000100001000010000000000000000000000000011100000000111000000011100001000000000000111000000000001
10000000000000111000000110000000000011111100000011000000001110000010000111110000000011111000000011100000000000011001110000000111110000100000011111111111111110001111100001000000001100000000011111110000011110000000000011000000000000000000000011111000000000000000111000111110000000000000001000111000100000111111100000000011000111000011111111111111100000000011100000000111100001100000011001110001111000000000000111000111001110011000000000000000000000000000000011111111111111000011111110011000001111111111000000000001
11000000000001111000000000000000000001111110000000000000001111000000000111100000000111110000000000000000000000111111110000001111100000100000111110000111111111111111110000000000011100000000000000000000111100000000000000000000000000000000000011111000000000000001111000000000000000000000000000111101110000111111100000000011100110000000000001111111000000000111110000001111100000000000010000110000111100000000000110000111111110011100000000000000000000000000000111111111111111100111111111111100000111111111100000000011
10000000000001110000000000011000000001111110000000000000001111000000000111000000000111110000000000000000000001111111000000001100000001100001111100000011110111111111111000001100111100000000000000000001111000010000000000000000000000001100000011111000000000000011111000000000000011100011000000111111111100111101110000100011111000000000000000111110000110000111110000001111110000000000010000010000001110000000000000000111001110011110000000000000000000111000011111111111111111111111111111111110000011111101111000000011
00000000110000100000000000111100000001111001000000011000001110011000000110000000000011100001111000000111100001111110000000011000000001100001111100000001100011111000111000011111111100000110000000000001110000111000000000110000000000011111000001111000000000000111110000000000111111111111100000011111111110011000111001110001110000000000000000011100001111100001110000000111111000000000010000011000001100000000001100000110001100001100000011111000000001111111111111111111110001111111100001111100000011110000111000000011
00000001110000100000000000111100000001110000100000011100011100001000000111000000000000000001111000000111100000001110000000111000000011100000001110000001000011110000000000011100011100000000000000000000000000111100000001110000000000011100000001111000000000001110000000000001110000000011100000011100011100001000010000100000000000011100000000000000001110000000111000000011110000100000010000111100000000000100001110001110000100000000000111000000000000111000000000000011100000000000000001110000000111100000011100000001
00001111110000000001100000111100001111100000000000011111111000000000000111111111110000000001111000000111100000000110000111111000011111100000000111000001000011100000000000011000001100000000011111111000000000111110001111110000111000011000000001111000011100011100000011000011100000000001100000011000000000000000000000000000000011111110001110000000001100000000011111000001100001110000000001111110000000001110001111111110000100000000001111000000100000000000000000000000000000000000000001100000001111000000001111000000
00011111100000000011110000011100001110000000000000001111110000000000001111111111111000000000111100000011110000000111001111111100011111000000000111100001000000000000000000000000001110000000011110001000000000111110011111111001111100011000000000111101111111111100000000000011100000000000000000111000000000000000000000000000000111111111101111000000001100000000001111100000000001111000000001111110000000000100001111001100001110000000001111000000000000000000000000000000000000000000000011110000000110000000000100000000
00011110000000000011100000011100011100000000000000000111100000000001111111111111111000000000011110000001111100000111001110011110001110000110000011110001100000000000000000000000000111110000001110000110000000111110011100111111111100011000000000011111111111111100000000000011100000110000000001111100000000000000000001000000000111111111100111000000001100000000000111100000000111111100000001111110000000000000001110000000001110000000001111000000001000000000000000000000000000000000000011111000000000000000000000000000
00011100000000000111000000011100001000000000001100000011100000000011111111111111110000001100001110000000111111000111001100001110000110001111000001110001100000000011100000000011000011111100000100000111000000111100001000011111111000011000000000001111111000111000011000000001000001111000000001111110000000000000000111100000100001111111000011000000001100000000000011100000001110001110000000111100000011000000001100000000001110000100000111100000001110000000111111111000000100000000000011111111100000000000011000001000
00001000000000001111000000111100001000000100001110000000000001000011100000000000000000011100000000000000000111000010000100000000000100001111000000100001110000000111100000000000000001110000000100001111000000111100001000000000000000011100000000000001110000000000011100000001000011110000000000001110000000000000000111100000000000111000000011100000001110000000000001110000000100001111000000111100000011100000001110001110000100000000000111100000011110000001110000000000001110000000000001110001110000001000011100011100
10000000011100011111000001111100001000000000001111110000000011100011000000000000000011111100000000011000000011000000000000000000000100001111000000000001111100001111100000110000000000000000000110011111000000111100001000000000000000011111111111000000000000000000011111100000100111100000011000000110000111111110000111100000000000000000000011111100001111111111000000111110000000001111100000111100000011111000001111111111000000000000000111100000111110000011110000000000001111111111000000000001111000001000011111111100
00000000111110011110000011111000000000000000000000000000000001000000000000000000000111111110000000010000000011000000000000000000001110001111100000000011111001111111110000000000000000000000000111001110000000111110000000000000000000001111111111000000000000000000001111100000011111100000111100000000001111111111000011100000000000000000000111111110001111111111100000011110000000001111110000011000000001100000000111111111100000000000001111110000111110001111100000000000000000010000000000000000111100000000001111111000
00000000111110011100000111110000000000000000000000000000000000000000000000001110000111001111100001100000000011000000000000000000011100001111110000011111100001111111111000000000000000000000000111000000001100011110000001100000000000001111111110000000000000000000001111000000011111100000011110000000001111111111000001100000000000000000001111111110001110111111000000000110000000000011111100000000000000000000000000111111110000000000011111111000111100011111110000000000000000000000011100000000001111000000001111100000
